const unsigned char model[] = {
  0x1c, 0x00, 0x00, 0x00, 0x54, 0x46, 0x4c, 0x33, 0x14, 0x00, 0x20, 0x00,
  0x04, 0x00, 0x08, 0x00, 0x0c, 0x00, 0x10, 0x00, 0x14, 0x00, 0x00, 0x00,
  0x18, 0x00, 0x1c, 0x00, 0x14, 0x00, 0x00, 0x00, 0x03, 0x00, 0x00, 0x00,
  0x18, 0x00, 0x00, 0x00, 0x20, 0x00, 0x00, 0x00, 0xa4, 0x00, 0x00, 0x00,
  0x20, 0x00, 0x00, 0x00, 0x4c, 0x00, 0x00, 0x00, 0x44, 0x00, 0x00, 0x00,
  0x02, 0x00, 0x00, 0x00, 0xb4, 0x02, 0x00, 0x00, 0x54, 0x01, 0x00, 0x00,
  0x01, 0x00, 0x00, 0x00, 0xa8, 0x00, 0x00, 0x00, 0x0a, 0x00, 0x00, 0x00,
  0x00, 0x16, 0x00, 0x00, 0xfc, 0x15, 0x00, 0x00, 0xb0, 0x14, 0x00, 0x00,
  0x28, 0x14, 0x00, 0x00, 0xc8, 0x05, 0x00, 0x00, 0x1c, 0x03, 0x00, 0x00,
  0xe8, 0x15, 0x00, 0x00, 0xe4, 0x15, 0x00, 0x00, 0xe0, 0x15, 0x00, 0x00,
  0x3c, 0x00, 0x00, 0x00, 0x00, 0x00, 0x00, 0x00, 0x01, 0x00, 0x00, 0x00,
  0x0c, 0x00, 0x00, 0x00, 0x08, 0x00, 0x0c, 0x00, 0x04, 0x00, 0x08, 0x00,
  0x08, 0x00, 0x00, 0x00, 0x08, 0x00, 0x00, 0x00, 0x09, 0x00, 0x00, 0x00,
  0x13, 0x00, 0x00, 0x00, 0x6d, 0x69, 0x6e, 0x5f, 0x72, 0x75, 0x6e, 0x74,
  0x69, 0x6d, 0x65, 0x5f, 0x76, 0x65, 0x72, 0x73, 0x69, 0x6f, 0x6e, 0x00,
  0xae, 0xeb, 0xff, 0xff, 0x04, 0x00, 0x00, 0x00, 0x10, 0x00, 0x00, 0x00,
  0x31, 0x2e, 0x35, 0x2e, 0x30, 0x00, 0x00, 0x00, 0x00, 0x00, 0x00, 0x00,
  0x00, 0x00, 0x00, 0x00, 0x0f, 0x00, 0x00, 0x00, 0x4d, 0x4c, 0x49, 0x52,
  0x20, 0x43, 0x6f, 0x6e, 0x76, 0x65, 0x72, 0x74, 0x65, 0x64, 0x2e, 0x00,
  0x00, 0x00, 0x0e, 0x00, 0x18, 0x00, 0x04, 0x00, 0x08, 0x00, 0x0c, 0x00,
  0x10, 0x00, 0x14, 0x00, 0x0e, 0x00, 0x00, 0x00, 0x14, 0x00, 0x00, 0x00,
  0x34, 0x00, 0x00, 0x00, 0x38, 0x00, 0x00, 0x00, 0x3c, 0x00, 0x00, 0x00,
  0x48, 0x00, 0x00, 0x00, 0x08, 0x00, 0x00, 0x00, 0xfc, 0x14, 0x00, 0x00,
  0x8c, 0x14, 0x00, 0x00, 0x90, 0x13, 0x00, 0x00, 0x2c, 0x13, 0x00, 0x00,
  0xc8, 0x04, 0x00, 0x00, 0xe0, 0x01, 0x00, 0x00, 0x04, 0x01, 0x00, 0x00,
  0x7c, 0x00, 0x00, 0x00, 0x01, 0x00, 0x00, 0x00, 0x00, 0x00, 0x00, 0x00,
  0x01, 0x00, 0x00, 0x00, 0x07, 0x00, 0x00, 0x00, 0x03, 0x00, 0x00, 0x00,
  0x68, 0x01, 0x00, 0x00, 0xb4, 0x00, 0x00, 0x00, 0x1c, 0x00, 0x00, 0x00,
  0x04, 0x00, 0x00, 0x00, 0x6d, 0x61, 0x69, 0x6e, 0x00, 0x00, 0x0e, 0x00,
  0x18, 0x00, 0x08, 0x00, 0x0c, 0x00, 0x10, 0x00, 0x07, 0x00, 0x14, 0x00,
  0x0e, 0x00, 0x00, 0x00, 0x00, 0x00, 0x00, 0x09, 0x01, 0x00, 0x00, 0x00,
  0x1c, 0x00, 0x00, 0x00, 0x10, 0x00, 0x00, 0x00, 0x04, 0x00, 0x00, 0x00,
  0x7a, 0xec, 0xff, 0xff, 0x00, 0x00, 0x80, 0x3f, 0x01, 0x00, 0x00, 0x00,
  0x07, 0x00, 0x00, 0x00, 0x01, 0x00, 0x00, 0x00, 0x06, 0x00, 0x00, 0x00,
  0xb0, 0xfe, 0xff, 0xff, 0x19, 0x00, 0x00, 0x00, 0x00, 0x00, 0x00, 0x19,
  0x01, 0x00, 0x00, 0x00, 0xb0, 0xeb, 0xff, 0xff, 0x14, 0x00, 0x00, 0x00,
  0x08, 0x00, 0x00, 0x00, 0x18, 0x00, 0x00, 0x00, 0x30, 0x00, 0x00, 0x00,
  0x20, 0x00, 0x00, 0x00, 0x02, 0x00, 0x00, 0x00, 0x01, 0x00, 0x00, 0x00,
  0x05, 0x00, 0x00, 0x00, 0x08, 0x00, 0x00, 0x00, 0x49, 0x64, 0x65, 0x6e,
  0x74, 0x69, 0x74, 0x79, 0x00, 0x00, 0x00, 0x00, 0x02, 0x00, 0x00, 0x00,
  0xff, 0xff, 0xff, 0xff, 0x05, 0x00, 0x00, 0x00, 0xec, 0xec, 0xff, 0xff,
  0x00, 0x00, 0x0e, 0x00, 0x14, 0x00, 0x00, 0x00, 0x08, 0x00, 0x0c, 0x00,
  0x07, 0x00, 0x10, 0x00, 0x0e, 0x00, 0x00, 0x00, 0x00, 0x00, 0x00, 0x08,
  0x18, 0x00, 0x00, 0x00, 0x0c, 0x00, 0x00, 0x00, 0x04, 0x00, 0x00, 0x00,
  0xc0, 0xeb, 0xff, 0xff, 0x01, 0x00, 0x00, 0x00, 0x06, 0x00, 0x00, 0x00,
  0x03, 0x00, 0x00, 0x00, 0x05, 0x00, 0x00, 0x00, 0x04, 0x00, 0x00, 0x00,
  0x02, 0x00, 0x00, 0x00, 0x34, 0xec, 0xff, 0xff, 0x14, 0x00, 0x00, 0x00,
  0x07, 0x00, 0x00, 0x00, 0x18, 0x00, 0x00, 0x00, 0x5c, 0x00, 0x00, 0x00,
  0x4c, 0x00, 0x00, 0x00, 0x02, 0x00, 0x00, 0x00, 0x01, 0x00, 0x00, 0x00,
  0x05, 0x00, 0x00, 0x00, 0x34, 0x00, 0x00, 0x00, 0x73, 0x65, 0x71, 0x75,
  0x65, 0x6e, 0x74, 0x69, 0x61, 0x6c, 0x2f, 0x64, 0x65, 0x6e, 0x73, 0x65,
  0x5f, 0x31, 0x2f, 0x4d, 0x61, 0x74, 0x4d, 0x75, 0x6c, 0x3b, 0x73, 0x65,
  0x71, 0x75, 0x65, 0x6e, 0x74, 0x69, 0x61, 0x6c, 0x2f, 0x64, 0x65, 0x6e,
  0x73, 0x65, 0x5f, 0x31, 0x2f, 0x42, 0x69, 0x61, 0x73, 0x41, 0x64, 0x64,
  0x00, 0x00, 0x00, 0x00, 0x02, 0x00, 0x00, 0x00, 0xff, 0xff, 0xff, 0xff,
  0x05, 0x00, 0x00, 0x00, 0x9c, 0xed, 0xff, 0xff, 0x00, 0x00, 0x0e, 0x00,
  0x16, 0x00, 0x00, 0x00, 0x08, 0x00, 0x0c, 0x00, 0x07, 0x00, 0x10, 0x00,
  0x0e, 0x00, 0x00, 0x00, 0x00, 0x00, 0x00, 0x08, 0x24, 0x00, 0x00, 0x00,
  0x18, 0x00, 0x00, 0x00, 0x0c, 0x00, 0x00, 0x00, 0x00, 0x00, 0x06, 0x00,
  0x08, 0x00, 0x07, 0x00, 0x06, 0x00, 0x00, 0x00, 0x00, 0x00, 0x00, 0x01,
  0x01, 0x00, 0x00, 0x00, 0x05, 0x00, 0x00, 0x00, 0x03, 0x00, 0x00, 0x00,
  0x00, 0x00, 0x00, 0x00, 0x03, 0x00, 0x00, 0x00, 0x01, 0x00, 0x00, 0x00,
  0x0c, 0x00, 0x10, 0x00, 0x0b, 0x00, 0x00, 0x00, 0x0c, 0x00, 0x04, 0x00,
  0x0c, 0x00, 0x00, 0x00, 0x09, 0x00, 0x00, 0x00, 0x00, 0x00, 0x00, 0x09,
  0x01, 0x00, 0x00, 0x00, 0x0c, 0xed, 0xff, 0xff, 0x14, 0x00, 0x00, 0x00,
  0x06, 0x00, 0x00, 0x00, 0x18, 0x00, 0x00, 0x00, 0x6c, 0x00, 0x00, 0x00,
  0x5c, 0x00, 0x00, 0x00, 0x02, 0x00, 0x00, 0x00, 0x01, 0x00, 0x00, 0x00,
  0x1e, 0x00, 0x00, 0x00, 0x46, 0x00, 0x00, 0x00, 0x73, 0x65, 0x71, 0x75,
  0x65, 0x6e, 0x74, 0x69, 0x61, 0x6c, 0x2f, 0x64, 0x65, 0x6e, 0x73, 0x65,
  0x2f, 0x4d, 0x61, 0x74, 0x4d, 0x75, 0x6c, 0x3b, 0x73, 0x65, 0x71, 0x75,
  0x65, 0x6e, 0x74, 0x69, 0x61, 0x6c, 0x2f, 0x64, 0x65, 0x6e, 0x73, 0x65,
  0x2f, 0x52, 0x65, 0x6c, 0x75, 0x3b, 0x73, 0x65, 0x71, 0x75, 0x65, 0x6e,
  0x74, 0x69, 0x61, 0x6c, 0x2f, 0x64, 0x65, 0x6e, 0x73, 0x65, 0x2f, 0x42,
  0x69, 0x61, 0x73, 0x41, 0x64, 0x64, 0x00, 0x00, 0x02, 0x00, 0x00, 0x00,
  0xff, 0xff, 0xff, 0xff, 0x1e, 0x00, 0x00, 0x00, 0x30, 0xed, 0xff, 0xff,
  0x7e, 0xee, 0xff, 0xff, 0x04, 0x00, 0x00, 0x00, 0x58, 0x02, 0x00, 0x00,
  0xda, 0x9a, 0x29, 0x3e, 0x9a, 0x2f, 0x41, 0x3e, 0x4a, 0xea, 0x35, 0x3e,
  0xad, 0x8c, 0xb0, 0xbe, 0x2c, 0xdc, 0xeb, 0x3d, 0x6e, 0x75, 0x27, 0xbe,
  0xc4, 0x7d, 0xfb, 0xbd, 0xb4, 0xf9, 0xd3, 0x3d, 0x46, 0x39, 0xb2, 0xbe,
  0x55, 0xce, 0x91, 0xbe, 0xbd, 0xc1, 0x87, 0xbe, 0x5f, 0xc9, 0x87, 0xbe,
  0x80, 0xfa, 0xce, 0x3c, 0x00, 0x88, 0xdb, 0x3a, 0x2c, 0x6c, 0x8d, 0xbd,
  0x59, 0xcb, 0x36, 0xbe, 0xd8, 0x04, 0xad, 0x3d, 0x60, 0x50, 0x7e, 0x3d,
  0xc0, 0x32, 0xc7, 0xbc, 0x72, 0x6d, 0x73, 0x3e, 0xf2, 0x39, 0x09, 0x3e,
  0x72, 0x7a, 0x03, 0xbe, 0x89, 0x99, 0x7f, 0xbe, 0xb2, 0x85, 0x18, 0x3e,
  0xfa, 0x70, 0x8a, 0xbe, 0xe0, 0x61, 0xcb, 0xbc, 0xdd, 0x13, 0xc4, 0x3e,
  0xfe, 0x0a, 0x58, 0x3e, 0x33, 0xa5, 0xbc, 0x3e, 0xfe, 0xcd, 0x12, 0xbe,
  0x62, 0xff, 0x4d, 0x3e, 0x19, 0x61, 0x34, 0x3e, 0xdf, 0x6f, 0xa1, 0xbd,
  0xc2, 0xec, 0xda, 0xbb, 0x1f, 0x2c, 0xad, 0x3e, 0xac, 0x25, 0xa7, 0x3d,
  0x8e, 0x2c, 0x08, 0x3e, 0x5c, 0x01, 0x26, 0xbe, 0xb0, 0x5b, 0x02, 0x3d,
  0x07, 0x31, 0xd3, 0x3d, 0x01, 0xca, 0x6d, 0xbe, 0x3e, 0x07, 0x4b, 0xbd,
  0x2f, 0xbe, 0x96, 0x3e, 0xc8, 0xd8, 0x74, 0x3d, 0x99, 0x26, 0x0a, 0x3d,
  0x77, 0x5d, 0xfa, 0x3d, 0x65, 0x13, 0x78, 0xbd, 0xc0, 0xf2, 0xae, 0x3e,
  0x22, 0x92, 0xf2, 0x3e, 0x48, 0x1a, 0x44, 0xbd, 0x98, 0x07, 0x02, 0x3f,
  0x4b, 0x0d, 0x5d, 0x3e, 0xbb, 0x83, 0x0b, 0x3f, 0x62, 0xc7, 0x77, 0x3e,
  0x84, 0x63, 0x2d, 0x3e, 0x68, 0x0e, 0x04, 0x3d, 0x84, 0xdb, 0xe5, 0x3d,
  0x27, 0x37, 0xb6, 0x3e, 0xc8, 0xb0, 0xc3, 0x3e, 0x81, 0xb5, 0x91, 0xbe,
  0x13, 0x19, 0xaf, 0x3e, 0xf2, 0x4b, 0x39, 0xbe, 0x74, 0xfc, 0x91, 0x3e,
  0x56, 0x78, 0x09, 0xbc, 0x1e, 0xf2, 0x71, 0x3e, 0xe1, 0x3c, 0x9b, 0x3e,
  0x40, 0x4e, 0xa7, 0xbe, 0xc0, 0xe7, 0x76, 0x3d, 0xe8, 0xb6, 0x76, 0xbe,
  0x2e, 0x12, 0xaa, 0x3d, 0x7e, 0x7e, 0x0c, 0x3e, 0x9c, 0x08, 0xef, 0xbd,
  0x5f, 0x18, 0xad, 0x3e, 0xf0, 0x77, 0x4e, 0x3d, 0x0e, 0x84, 0x89, 0xbe,
  0x65, 0x0b, 0xbf, 0x3d, 0x2b, 0xbd, 0xe8, 0x3e, 0x93, 0x1c, 0x38, 0xbe,
  0xa5, 0x17, 0x71, 0xbf, 0x5f, 0x07, 0x8c, 0x3e, 0xe4, 0xe6, 0x13, 0x3f,
  0xb7, 0x5c, 0x07, 0x3f, 0x29, 0x89, 0x9f, 0x3e, 0x2b, 0x43, 0x97, 0x3e,
  0xbc, 0x71, 0xde, 0xbc, 0x10, 0xae, 0x55, 0xbd, 0x9a, 0xc5, 0x0c, 0x3e,
  0x8d, 0x26, 0x82, 0xbe, 0x00, 0x34, 0x7f, 0xba, 0xd0, 0x46, 0x9d, 0xbc,
  0x40, 0x4c, 0x66, 0xbc, 0x6c, 0xbd, 0x36, 0xbd, 0xb6, 0x7c, 0x43, 0xbe,
  0x33, 0x06, 0x91, 0xbd, 0xf2, 0x0d, 0x7e, 0x3e, 0x4d, 0x7b, 0xa9, 0x3e,
  0xe4, 0x80, 0x42, 0xbe, 0x0f, 0x18, 0xd2, 0x3e, 0x45, 0x68, 0x57, 0xbe,
  0xf1, 0x4f, 0x90, 0x3d, 0x4b, 0x24, 0xb6, 0x3e, 0xc5, 0x84, 0x94, 0xbc,
  0xd5, 0x6d, 0x0b, 0x3f, 0x4e, 0x90, 0x64, 0x3e, 0x5f, 0x83, 0xc1, 0xbc,
  0x12, 0x19, 0xfa, 0x3d, 0x03, 0xcf, 0x19, 0xbc, 0xc0, 0x11, 0x9f, 0x3e,
  0xf9, 0xf3, 0xeb, 0xbe, 0x74, 0xed, 0xba, 0xbe, 0xd9, 0xc9, 0xd6, 0x3e,
  0x41, 0xde, 0x98, 0x3e, 0x5f, 0x1e, 0xab, 0x3e, 0xcb, 0xba, 0x80, 0xbe,
  0xb9, 0x51, 0x59, 0xbe, 0x9e, 0x02, 0x11, 0x3e, 0x94, 0xb1, 0xd7, 0xbd,
  0xc0, 0x5e, 0xa9, 0x3e, 0x22, 0x14, 0x83, 0x3e, 0x1b, 0xed, 0xa4, 0xbe,
  0x17, 0x4e, 0xc2, 0x3e, 0x20, 0xa5, 0xad, 0xbd, 0x51, 0xd0, 0xe9, 0x3d,
  0xf2, 0x5f, 0xe4, 0x3e, 0xa6, 0x76, 0x68, 0x3e, 0x9c, 0xd3, 0xe0, 0x3d,
  0xc2, 0x47, 0x5b, 0x3e, 0xd0, 0x94, 0xa1, 0xbc, 0x24, 0xac, 0xfd, 0x3d,
  0xfc, 0x62, 0xd4, 0x3e, 0xc2, 0x1e, 0x46, 0x3e, 0x4f, 0x83, 0xa7, 0xbe,
  0xd7, 0x0a, 0x30, 0x3e, 0x34, 0xaf, 0xc3, 0x3d, 0xea, 0x89, 0xbd, 0x3e,
  0xce, 0x62, 0xb3, 0xbc, 0x6d, 0x0b, 0x17, 0x3f, 0xf0, 0x0e, 0xb9, 0x3e,
  0x46, 0xd8, 0x11, 0x3e, 0x52, 0xa4, 0xca, 0xbe, 0x56, 0x08, 0xd7, 0x3d,
  0x99, 0x13, 0x1f, 0x3e, 0xcd, 0xb2, 0x9a, 0x3e, 0x7b, 0xa5, 0x54, 0x3f,
  0x84, 0x02, 0xe2, 0x3d, 0xf9, 0x8b, 0xd3, 0xbe, 0xae, 0x8c, 0x6e, 0xbe,
  0xcc, 0x2c, 0x2a, 0xbe, 0x02, 0xf7, 0x6e, 0x3e, 0xf8, 0x8c, 0xa7, 0xbd,
  0x56, 0xf0, 0xff, 0xff, 0x10, 0x00, 0x00, 0x00, 0x05, 0x00, 0x00, 0x00,
  0x14, 0x00, 0x00, 0x00, 0x30, 0x00, 0x00, 0x00, 0x02, 0x00, 0x00, 0x00,
  0x05, 0x00, 0x00, 0x00, 0x1e, 0x00, 0x00, 0x00, 0x19, 0x00, 0x00, 0x00,
  0x73, 0x65, 0x71, 0x75, 0x65, 0x6e, 0x74, 0x69, 0x61, 0x6c, 0x2f, 0x64,
  0x65, 0x6e, 0x73, 0x65, 0x5f, 0x31, 0x2f, 0x4d, 0x61, 0x74, 0x4d, 0x75,
  0x6c, 0x00, 0x00, 0x00, 0xd8, 0xef, 0xff, 0xff, 0x26, 0xf1, 0xff, 0xff,
  0x04, 0x00, 0x00, 0x00, 0x10, 0x0e, 0x00, 0x00, 0x80, 0x92, 0x0f, 0xbc,
  0x87, 0xec, 0x86, 0x3e, 0xcd, 0x36, 0x95, 0x3e, 0x38, 0x0f, 0x49, 0x3d,
  0x41, 0x46, 0x99, 0x3e, 0x1e, 0xda, 0x91, 0xbe, 0x0a, 0x6a, 0x3b, 0x3e,
  0x2e, 0xba, 0x5f, 0x3e, 0x6a, 0x64, 0xb9, 0xbd, 0x46, 0xd0, 0x31, 0xbe,
  0x22, 0xbb, 0xf9, 0xbd, 0x98, 0x71, 0xf5, 0x3d, 0x8e, 0x04, 0x1f, 0xbe,
  0xd8, 0x47, 0x75, 0x3d, 0xd3, 0x47, 0x8e, 0xbe, 0xcf, 0x5b, 0x8b, 0x3e,
  0x80, 0xd9, 0x0a, 0x3d, 0x9f, 0x1d, 0x89, 0x3e, 0x39, 0x50, 0x87, 0xbe,
  0x94, 0x8f, 0x82, 0xbd, 0xd8, 0xcb, 0x90, 0xbe, 0xc8, 0x41, 0x63, 0x3d,
  0x50, 0x92, 0x25, 0x3d, 0xe4, 0x93, 0xfb, 0x3d, 0x8a, 0xff, 0x36, 0x3e,
  0x84, 0x50, 0x47, 0xbe, 0x40, 0x01, 0x38, 0xbc, 0xba, 0x75, 0xb9, 0xbd,
  0x40, 0x46, 0x3c, 0xbd, 0x4e, 0x44, 0x42, 0x3e, 0xa0, 0x70, 0xf1, 0x3c,
  0x77, 0x9e, 0x23, 0x3e, 0xbc, 0xb2, 0x8a, 0x3e, 0x5d, 0xfb, 0x8a, 0x3e,
  0xaf, 0x19, 0x9e, 0xbe, 0x4f, 0x20, 0x92, 0x3d, 0xe8, 0x74, 0x5c, 0xbe,
  0x0c, 0xeb, 0x03, 0x3e, 0x93, 0x8d, 0xf0, 0x3d, 0x23, 0xdb, 0x2c, 0xbe,
  0x9b, 0x27, 0x37, 0x3e, 0x5d, 0x28, 0x77, 0xbe, 0xe6, 0x29, 0x97, 0x3e,
  0xf0, 0x16, 0xae, 0x3d, 0x45, 0x08, 0x3c, 0xbe, 0xd0, 0x3d, 0x44, 0xbe,
  0x38, 0xc3, 0x13, 0x3d, 0x3f, 0xa8, 0x52, 0xbe, 0x20, 0xc7, 0xe9, 0xbc,
  0xc6, 0xfa, 0x8f, 0x3e, 0x4d, 0xe5, 0xaa, 0x3d, 0x3a, 0x23, 0x25, 0xbe,
  0x3a, 0x96, 0xf5, 0x3c, 0xf1, 0x1c, 0x95, 0xbe, 0xd4, 0x5b, 0x01, 0x3e,
  0x45, 0x76, 0x5b, 0x3e, 0xf4, 0x55, 0x5f, 0xbe, 0xa1, 0x4a, 0x5b, 0xbe,
  0x70, 0xaa, 0x47, 0xbd, 0x93, 0x73, 0x52, 0x3e, 0xb2, 0x1f, 0x37, 0x3e,
  0xe9, 0x63, 0x92, 0xbe, 0x30, 0xda, 0x7c, 0x3e, 0x79, 0x4b, 0xbc, 0xbd,
  0x9f, 0xfb, 0x9e, 0x3e, 0xe7, 0x75, 0x00, 0xbd, 0x0a, 0x6e, 0x2a, 0x3d,
  0x60, 0x90, 0x3d, 0xbc, 0x3e, 0x47, 0x66, 0xbb, 0x0d, 0xd2, 0xf0, 0xbd,
  0x8c, 0x2b, 0x23, 0x3e, 0x32, 0x46, 0x63, 0x3d, 0x4d, 0x6e, 0x2f, 0x3e,
  0x63, 0x76, 0xc6, 0xbd, 0xbf, 0x58, 0x3f, 0xbe, 0x0a, 0xa6, 0x98, 0xbe,
  0x49, 0x2f, 0x0b, 0x3d, 0xf0, 0x57, 0x50, 0xbe, 0x89, 0x2c, 0x80, 0xbd,
  0x62, 0x85, 0x9f, 0xbd, 0xd1, 0xb4, 0x86, 0xbe, 0x12, 0x97, 0xac, 0xbd,
  0xf8, 0x3f, 0x92, 0x3e, 0xe9, 0x00, 0x20, 0x3e, 0x13, 0x58, 0x86, 0x3e,
  0xba, 0xab, 0x00, 0x3e, 0x63, 0xc0, 0x26, 0x3e, 0x96, 0x7b, 0x60, 0xbe,
  0x7e, 0xb9, 0x48, 0xbe, 0x71, 0xb3, 0x10, 0x3e, 0x53, 0x76, 0x9d, 0x3e,
  0x20, 0x94, 0xa8, 0x3e, 0x87, 0xe2, 0x14, 0x3c, 0x6d, 0x57, 0x9a, 0xbd,
  0xb8, 0x9d, 0xcf, 0xbd, 0x8c, 0x6a, 0x01, 0x3e, 0x2b, 0x6a, 0x6e, 0x3e,
  0x82, 0xc0, 0x9f, 0xbd, 0x94, 0x02, 0xb2, 0x3d, 0x3a, 0x2f, 0xb1, 0xbd,
  0xab, 0x04, 0x0b, 0x3e, 0xe2, 0x00, 0x50, 0x3e, 0x9d, 0xd5, 0x7a, 0x3e,
  0x1d, 0xd9, 0x54, 0xbe, 0x58, 0x17, 0x8f, 0x3d, 0x75, 0xeb, 0xc3, 0x3d,
  0xc8, 0x44, 0x74, 0xbe, 0x56, 0x76, 0x33, 0xbe, 0x09, 0x0d, 0x19, 0xbe,
  0x30, 0x27, 0x8d, 0x3e, 0x19, 0x54, 0x65, 0x3e, 0x06, 0xec, 0x1d, 0x3e,
  0x70, 0xad, 0x52, 0xbe, 0x5f, 0xfa, 0x10, 0xbe, 0x7e, 0x84, 0x1e, 0xbe,
  0x66, 0x49, 0x0f, 0xbe, 0xb4, 0xd2, 0xef, 0xbc, 0x5b, 0x24, 0x27, 0xbe,
  0x78, 0xfd, 0xf3, 0xbd, 0xda, 0xe3, 0x58, 0x3d, 0x4a, 0xd6, 0x01, 0x3e,
  0xb0, 0xcf, 0x67, 0x3d, 0x80, 0x74, 0xc7, 0xbc, 0xb0, 0xb7, 0xba, 0x3d,
  0xe8, 0x9c, 0x93, 0x3d, 0x7f, 0xb6, 0x06, 0xbe, 0x77, 0xee, 0x81, 0x3e,
  0x03, 0xbb, 0x9d, 0x3e, 0xa8, 0x40, 0x4f, 0xbe, 0x44, 0xd6, 0x04, 0x3e,
  0x60, 0x3f, 0x8c, 0x3c, 0x4a, 0xc9, 0x70, 0x3e, 0x70, 0x97, 0xc6, 0x3c,
  0x90, 0xb0, 0xcb, 0xbc, 0x94, 0x86, 0xf2, 0xbd, 0x5a, 0xb4, 0x28, 0x3e,
  0xe0, 0x8f, 0xdf, 0xbc, 0xe0, 0x77, 0xbe, 0x3d, 0xd4, 0x9d, 0xec, 0x3d,
  0xb4, 0xab, 0x36, 0xbe, 0x7e, 0x94, 0xe9, 0xbd, 0x00, 0xbc, 0xce, 0x3b,
  0x4e, 0x7c, 0x08, 0x3e, 0xfd, 0xf0, 0x45, 0xbe, 0xf8, 0x21, 0x25, 0xbd,
  0x54, 0x68, 0xa0, 0xbe, 0xa8, 0xc1, 0x1f, 0x3e, 0x30, 0xf4, 0xd5, 0x3d,
  0x00, 0x49, 0xb1, 0x3c, 0x0e, 0x86, 0xb6, 0xbd, 0xbf, 0xc6, 0x97, 0xbe,
  0x29, 0x98, 0x30, 0xbe, 0xa8, 0xb6, 0xd7, 0x3d, 0x40, 0x7e, 0xec, 0xbc,
  0x20, 0x24, 0x2e, 0xbd, 0xe8, 0xfc, 0xdf, 0x3d, 0xc6, 0xfb, 0x0a, 0x3e,
  0x4b, 0xf7, 0x8b, 0xbe, 0xaa, 0x5b, 0x64, 0x3e, 0x4d, 0xe7, 0x8b, 0x3e,
  0x12, 0x4e, 0x0e, 0x3e, 0xb0, 0xf0, 0x2b, 0x3e, 0x62, 0xf2, 0x7d, 0xbe,
  0xe1, 0x48, 0x94, 0xbe, 0x80, 0x70, 0x6d, 0x3d, 0x30, 0xe6, 0x13, 0x3e,
  0x0c, 0x0f, 0xc9, 0x3d, 0xe0, 0x6a, 0x2d, 0x3c, 0xa5, 0x74, 0x90, 0x3e,
  0x0f, 0x65, 0x28, 0xbe, 0x5f, 0x75, 0x53, 0xbe, 0xac, 0xee, 0x71, 0xbe,
  0x70, 0xc1, 0xa8, 0xbc, 0x00, 0x18, 0x39, 0xba, 0x78, 0x05, 0x10, 0xbe,
  0xeb, 0xdc, 0x84, 0x3e, 0x70, 0x08, 0xcd, 0x3c, 0x78, 0xd4, 0x77, 0x3d,
  0x4d, 0x37, 0x99, 0x3e, 0x93, 0x3b, 0x80, 0xbe, 0x9e, 0x88, 0xd3, 0xbd,
  0x9e, 0x59, 0xa5, 0xbd, 0xea, 0x5c, 0x52, 0x3e, 0xae, 0xaf, 0xaa, 0xbd,
  0xfa, 0xa6, 0x1c, 0x3e, 0x34, 0x56, 0xf7, 0xbd, 0xe5, 0xcb, 0x98, 0x3e,
  0x37, 0x25, 0x8a, 0xbe, 0x10, 0x1f, 0x4c, 0x3d, 0xb4, 0x63, 0x26, 0x3e,
  0x2d, 0x22, 0x85, 0x3e, 0x90, 0xc1, 0xc5, 0x3c, 0x70, 0x43, 0x93, 0x3c,
  0xa0, 0x8b, 0x89, 0xbc, 0xbf, 0xc9, 0x93, 0xbe, 0x56, 0x17, 0x4b, 0x3e,
  0x9c, 0xb0, 0x80, 0xbd, 0x2d, 0x03, 0x82, 0x3e, 0x08, 0x93, 0xe6, 0xbd,
  0x27, 0xa7, 0x05, 0xbe, 0xaa, 0x84, 0xbc, 0xbd, 0x63, 0x5c, 0x49, 0xbe,
  0xfe, 0x89, 0x4d, 0x3e, 0x18, 0xec, 0x14, 0x3d, 0x00, 0x37, 0xa2, 0x3c,
  0xaa, 0xed, 0x27, 0x3e, 0x20, 0xf3, 0xa6, 0x3d, 0x13, 0x8c, 0x98, 0xbe,
  0xe6, 0xff, 0x71, 0x3e, 0x90, 0x7b, 0x79, 0xbd, 0xbc, 0x9c, 0xd4, 0x3d,
  0x9e, 0x68, 0x41, 0x3e, 0xe0, 0x42, 0x53, 0x3c, 0xf8, 0xaa, 0x87, 0xbe,
  0x96, 0xf7, 0xc1, 0xbd, 0x26, 0xc1, 0x09, 0xbe, 0x1e, 0xbd, 0x4d, 0x3e,
  0xa4, 0x34, 0x2f, 0xbe, 0x67, 0xf7, 0x9b, 0x3e, 0x40, 0x8b, 0xb8, 0x3b,
  0xce, 0x67, 0x7e, 0x3e, 0xf0, 0x8f, 0x3d, 0xbe, 0x2c, 0x2f, 0xc4, 0x3d,
  0x0e, 0xd6, 0x5c, 0xbe, 0x60, 0xb5, 0xc1, 0x3d, 0x8d, 0x74, 0x68, 0xbe,
  0x85, 0x18, 0x9b, 0xbe, 0x7e, 0x29, 0x3f, 0xbe, 0xad, 0x94, 0x95, 0x3e,
  0x94, 0x62, 0xd1, 0x3d, 0xf2, 0xf1, 0xe6, 0xbd, 0x14, 0x30, 0xe2, 0x3d,
  0xe8, 0xc7, 0xf0, 0x3d, 0x46, 0x51, 0x25, 0x3e, 0x04, 0x77, 0x33, 0x3e,
  0x1e, 0x2c, 0x8e, 0xbd, 0x04, 0x88, 0xfd, 0x3d, 0xd1, 0x34, 0x8d, 0x3e,
  0xd5, 0x66, 0x84, 0xbe, 0x2e, 0x42, 0x81, 0xbe, 0xb0, 0xa4, 0xd5, 0xbc,
  0xef, 0x51, 0x06, 0xbe, 0x74, 0x4f, 0xd4, 0x3d, 0xd8, 0x02, 0x75, 0xbd,
  0xce, 0xc1, 0x7f, 0x3e, 0xc0, 0xc6, 0xac, 0xbb, 0xf0, 0xbc, 0xaf, 0x3c,
  0x00, 0x0a, 0x3b, 0xbb, 0x00, 0xc8, 0x8d, 0x3c, 0x54, 0xcc, 0xab, 0xbd,
  0x80, 0x79, 0x19, 0x3e, 0x00, 0xb0, 0x46, 0xba, 0x02, 0x6a, 0x79, 0x3e,
  0x08, 0x72, 0x36, 0x3e, 0xa0, 0x0b, 0x05, 0x3c, 0x34, 0xc3, 0x7a, 0xbe,
  0x8e, 0xde, 0x76, 0xbe, 0xa5, 0xa4, 0x89, 0x3e, 0x83, 0x3d, 0x9e, 0x3e,
  0xe0, 0xa1, 0x03, 0x3d, 0x47, 0xd2, 0xa0, 0x3e, 0xdf, 0xb4, 0x0c, 0xbe,
  0xc7, 0x89, 0x1e, 0xbe, 0x30, 0x5c, 0x7a, 0x3d, 0x4c, 0x3c, 0x1a, 0xbe,
  0xe5, 0xdb, 0x87, 0x3e, 0x31, 0x9b, 0x9b, 0xbe, 0xbb, 0xf0, 0x94, 0x3e,
  0xaa, 0x74, 0x90, 0xbd, 0x60, 0x4b, 0xeb, 0x3c, 0x26, 0x3e, 0x9c, 0xbe,
  0x65, 0xf5, 0xb1, 0xbd, 0xe4, 0xa4, 0x2d, 0x3e, 0x9d, 0xa3, 0x3b, 0x3d,
  0xd3, 0x37, 0x92, 0xbd, 0xcb, 0x35, 0x88, 0xbe, 0x46, 0xfa, 0x11, 0xbe,
  0x7e, 0xe7, 0x9d, 0xbe, 0xa9, 0x2d, 0x8b, 0xbe, 0xd9, 0x6d, 0x5a, 0xbe,
  0xee, 0x0e, 0x05, 0xbf, 0x71, 0x61, 0xfd, 0xbb, 0x52, 0x86, 0x17, 0xbe,
  0x4e, 0xeb, 0xfd, 0x3a, 0x96, 0x20, 0x37, 0x3e, 0x0c, 0x9d, 0x04, 0xbe,
  0xe4, 0x42, 0x67, 0xbd, 0x2e, 0x54, 0x14, 0xbe, 0x7d, 0x8a, 0xca, 0xbb,
  0xcd, 0xbc, 0x80, 0xbc, 0x8f, 0x44, 0xac, 0x3d, 0x64, 0xfe, 0x01, 0x3e,
  0x66, 0x1a, 0xa1, 0xbd, 0xb5, 0xed, 0xa0, 0xbe, 0xa0, 0x54, 0x29, 0xbe,
  0xa3, 0x7e, 0xfc, 0xbd, 0xca, 0xd9, 0x8b, 0xbe, 0xa1, 0xbc, 0x8d, 0xbe,
  0x9e, 0x9c, 0x3c, 0x3e, 0xb2, 0xdc, 0x99, 0xbe, 0x8c, 0x38, 0x81, 0x3d,
  0xc8, 0x95, 0x36, 0x3d, 0xb2, 0x98, 0x00, 0x3e, 0xf0, 0x2b, 0xaa, 0x3d,
  0x40, 0x58, 0xb5, 0xbd, 0xa4, 0xd7, 0x99, 0x3d, 0xac, 0xe8, 0x7c, 0xbe,
  0x08, 0x25, 0x26, 0x3e, 0x6f, 0xef, 0x91, 0x3e, 0x64, 0x95, 0x84, 0x3d,
  0xc1, 0x6b, 0x84, 0xbe, 0x80, 0xc0, 0x7b, 0xbc, 0xe8, 0x86, 0x2b, 0x3d,
  0x84, 0x50, 0x8b, 0x3d, 0x88, 0x68, 0xb5, 0x3d, 0x9c, 0x37, 0x4a, 0xbe,
  0x4c, 0x7a, 0xfa, 0x3d, 0x38, 0x74, 0x12, 0xbe, 0x70, 0xd4, 0xc1, 0x3d,
  0xdd, 0x18, 0x8c, 0x3e, 0x80, 0xd1, 0xff, 0xbc, 0x06, 0x97, 0xcc, 0xbd,
  0xb4, 0x32, 0x22, 0xbe, 0x6e, 0xdf, 0x3c, 0x3e, 0x50, 0xea, 0x95, 0xbd,
  0x3a, 0x55, 0x0b, 0xbe, 0x60, 0x39, 0x24, 0x3e, 0x42, 0x01, 0x77, 0x3e,
  0xbf, 0x3d, 0x89, 0xbe, 0x52, 0xf7, 0x51, 0x3e, 0x20, 0xd3, 0xfd, 0xbc,
  0x36, 0xde, 0x68, 0xbe, 0x79, 0x69, 0xbc, 0x3d, 0x6f, 0xf7, 0x64, 0x3e,
  0xab, 0xfb, 0x13, 0xbe, 0x28, 0xc8, 0xfb, 0xbd, 0x8e, 0x2e, 0x3b, 0x3d,
  0x80, 0x13, 0x60, 0xbe, 0x89, 0x03, 0x96, 0xbe, 0x7a, 0x7b, 0x91, 0xbd,
  0x07, 0xa7, 0x32, 0x3d, 0xc7, 0x67, 0xbc, 0xbd, 0xb5, 0x4d, 0x96, 0x3e,
  0xea, 0x4d, 0x01, 0x3e, 0x46, 0x3f, 0x26, 0x3e, 0x8f, 0x11, 0x92, 0xbe,
  0xfb, 0xcb, 0x83, 0xbe, 0x2d, 0xc4, 0x1d, 0x3e, 0xb6, 0x8c, 0x37, 0x3d,
  0x26, 0x0b, 0x4a, 0x3d, 0xb3, 0x68, 0x33, 0x3d, 0xe0, 0xaa, 0x0b, 0xbc,
  0xb0, 0x35, 0xe8, 0xbd, 0x5e, 0xc4, 0x0e, 0xbe, 0x24, 0xec, 0x9b, 0x3c,
  0x86, 0xc6, 0xa4, 0x3e, 0x58, 0x9e, 0x89, 0x3e, 0xd9, 0x8d, 0x4c, 0x3e,
  0xd7, 0x65, 0x03, 0xbe, 0xba, 0xdd, 0x3e, 0x3d, 0x93, 0xef, 0x13, 0xbe,
  0xa7, 0xdb, 0x5f, 0xbe, 0x6a, 0xcc, 0x97, 0xbe, 0x05, 0x81, 0x41, 0x3e,
  0xe3, 0x5a, 0x0b, 0xbe, 0x92, 0x97, 0x12, 0xbe, 0x18, 0xb6, 0x69, 0x3e,
  0x20, 0xd8, 0x0d, 0x3c, 0xb9, 0x38, 0xad, 0xbe, 0xc7, 0xa8, 0xe4, 0xbe,
  0x48, 0xc8, 0x05, 0xbe, 0x15, 0xc5, 0xb4, 0xbe, 0x36, 0x85, 0xaa, 0x3d,
  0xb9, 0xc5, 0x00, 0xbf, 0x80, 0xf4, 0x01, 0x3d, 0x0a, 0x59, 0x51, 0x3e,
  0xe3, 0x94, 0xf9, 0x3d, 0x7d, 0xb8, 0x2a, 0x3e, 0x34, 0x9b, 0x80, 0xbd,
  0xfb, 0xb1, 0x2a, 0xbe, 0x21, 0x16, 0x52, 0xbe, 0xde, 0xa2, 0x02, 0x3e,
  0xb3, 0x0f, 0x97, 0xbe, 0x6f, 0x57, 0x20, 0xbd, 0x6a, 0x9b, 0x50, 0xbe,
  0xc8, 0xe7, 0x9a, 0x3d, 0x19, 0x25, 0xa3, 0xbd, 0xc2, 0xa9, 0x8f, 0x3e,
  0x31, 0x95, 0x83, 0x3e, 0x73, 0x6d, 0xa1, 0xbe, 0xe6, 0x0d, 0x22, 0x3e,
  0xac, 0x37, 0xfe, 0x3d, 0x94, 0x81, 0x82, 0x3d, 0xa2, 0x92, 0x7f, 0x3e,
  0x77, 0x7b, 0x8d, 0x3e, 0x60, 0x02, 0xd1, 0x3c, 0x13, 0xfa, 0x64, 0xbe,
  0x14, 0xa3, 0x15, 0x3e, 0x6d, 0x44, 0x0e, 0xbe, 0xd0, 0x2e, 0x99, 0x3d,
  0xa1, 0xa8, 0x91, 0xbe, 0xe4, 0x40, 0xef, 0xbd, 0x3e, 0x86, 0x4b, 0x3e,
  0x9b, 0x04, 0x11, 0xbe, 0x96, 0x32, 0x6f, 0x3e, 0x76, 0x2b, 0x2b, 0x3e,
  0x84, 0x4f, 0xe9, 0xbd, 0xae, 0xa0, 0x10, 0xbe, 0x40, 0x34, 0x62, 0xbd,
  0x5c, 0x5a, 0xb4, 0x3d, 0x0e, 0x62, 0x28, 0x3e, 0x46, 0xb8, 0xfa, 0xbd,
  0x4d, 0x3a, 0x90, 0x3e, 0xd2, 0xd9, 0x4d, 0x3e, 0xf0, 0xf1, 0x67, 0x3d,
  0x1f, 0x7a, 0x92, 0xbe, 0x18, 0x14, 0x2d, 0xbd, 0xa2, 0x28, 0xae, 0xbd,
  0xac, 0xe5, 0xbf, 0x3d, 0x52, 0xf4, 0x7b, 0x3e, 0x00, 0xdc, 0x50, 0x3b,
  0x78, 0x92, 0x50, 0xbe, 0xff, 0xe3, 0x72, 0x3e, 0x63, 0x14, 0x49, 0x3e,
  0xf1, 0x58, 0x19, 0x3e, 0x03, 0x26, 0x70, 0xbd, 0x6f, 0x30, 0x06, 0xbe,
  0xa4, 0xf4, 0xfd, 0x3d, 0xb0, 0xe3, 0x6f, 0xbe, 0x63, 0xac, 0x3d, 0xbe,
  0xbe, 0x20, 0xba, 0xbc, 0xc9, 0x09, 0x1a, 0xbe, 0xd7, 0x88, 0x58, 0xbe,
  0x7e, 0x42, 0x40, 0x3e, 0x3e, 0xd3, 0x0e, 0xbe, 0xf1, 0xbb, 0x54, 0x3e,
  0x5b, 0xc6, 0x89, 0xbe, 0x7c, 0x5c, 0x90, 0xbe, 0xca, 0x65, 0xeb, 0x3c,
  0xe6, 0x58, 0x02, 0xbe, 0xf9, 0x37, 0x90, 0x3d, 0xdb, 0x81, 0x9d, 0x3e,
  0x51, 0xe9, 0x8d, 0x3e, 0x61, 0xc8, 0x86, 0x3e, 0xe2, 0xba, 0xee, 0x3d,
  0x42, 0x98, 0x70, 0xbe, 0xe4, 0x87, 0x6b, 0xbe, 0x29, 0xd1, 0xb4, 0x3e,
  0xf3, 0x69, 0x86, 0x3e, 0x11, 0xc0, 0x02, 0xbe, 0xc0, 0xef, 0x86, 0xbc,
  0x6a, 0x9a, 0x97, 0x3e, 0x0e, 0x05, 0xac, 0xbd, 0xa4, 0x8d, 0x8e, 0xbd,
  0xfc, 0x27, 0x92, 0xbe, 0xe1, 0xbc, 0x9a, 0x3d, 0xcf, 0xfe, 0x2f, 0xbe,
  0x7e, 0x93, 0x40, 0xbe, 0xc1, 0xca, 0x7d, 0xbd, 0x61, 0x6a, 0x8b, 0xbe,
  0x86, 0x70, 0x4f, 0x3d, 0x01, 0x42, 0xa7, 0x3e, 0x05, 0x23, 0xed, 0x3d,
  0x88, 0x00, 0x49, 0xbe, 0x48, 0xfe, 0x89, 0x3d, 0xa5, 0xc4, 0xdb, 0xbd,
  0x96, 0xc2, 0x22, 0xbd, 0xd7, 0x23, 0x9d, 0x3e, 0xa0, 0x63, 0x52, 0xbe,
  0x32, 0xa8, 0x90, 0x3e, 0xe3, 0x53, 0x1e, 0x3e, 0x17, 0x63, 0x99, 0xbe,
  0xb6, 0xc4, 0x62, 0xbe, 0x2b, 0x4d, 0x9f, 0xbc, 0xe0, 0xcf, 0x11, 0xbe,
  0xa1, 0xe4, 0xa0, 0x3e, 0xe8, 0x32, 0x3e, 0x3e, 0xa2, 0x74, 0xd8, 0x3d,
  0xe8, 0x1a, 0x50, 0xbd, 0xcf, 0xdb, 0x2f, 0xbe, 0xa0, 0xc2, 0x0d, 0xbd,
  0x3b, 0x63, 0x7c, 0x3e, 0x8a, 0x03, 0x14, 0x3e, 0x57, 0xfc, 0x8a, 0xbc,
  0x5b, 0x6c, 0xf8, 0xbc, 0x88, 0x75, 0x64, 0xbe, 0x7f, 0x58, 0x4a, 0xbd,
  0x18, 0x28, 0x82, 0x3d, 0x8a, 0x23, 0x49, 0xbd, 0xee, 0x7b, 0x7b, 0x3e,
  0x72, 0xa6, 0x9e, 0xbe, 0x65, 0x84, 0x56, 0x3e, 0x27, 0x31, 0xac, 0xbc,
  0x07, 0xb3, 0xed, 0x3e, 0x8e, 0x25, 0x4b, 0x3e, 0x92, 0x40, 0xe3, 0xbd,
  0xd9, 0x52, 0x90, 0x3e, 0x24, 0x4f, 0x10, 0x3c, 0xc9, 0xf9, 0x88, 0xbe,
  0xdf, 0x08, 0x02, 0x3d, 0x1e, 0x01, 0x43, 0xbe, 0x18, 0x28, 0x85, 0x3d,
  0x25, 0xfd, 0xb7, 0xbd, 0x2f, 0x67, 0x1c, 0xbd, 0x50, 0x2c, 0x85, 0xbe,
  0xc2, 0x83, 0xb7, 0xbd, 0xdb, 0x32, 0x40, 0x3e, 0xb3, 0xdd, 0xb0, 0xbc,
  0x60, 0xf5, 0x31, 0xbc, 0x2d, 0x8b, 0x19, 0x3e, 0x27, 0xb5, 0x86, 0xbe,
  0xce, 0x91, 0x68, 0x3e, 0xd8, 0x67, 0xa1, 0x3e, 0x66, 0x9d, 0x86, 0xbe,
  0x7e, 0xbe, 0xe6, 0xbc, 0x4e, 0x04, 0x43, 0x3e, 0xd7, 0xc2, 0x30, 0x3e,
  0x80, 0x6d, 0xcf, 0x3b, 0x48, 0x7b, 0xa2, 0x3e, 0x3b, 0x83, 0x34, 0xbe,
  0x14, 0x9d, 0xe6, 0xbd, 0xc1, 0x23, 0x71, 0xbe, 0x87, 0x8a, 0xdd, 0xbd,
  0x99, 0xe7, 0xea, 0x3d, 0x80, 0xe2, 0x3b, 0x3c, 0x53, 0x13, 0x0e, 0xbe,
  0x0e, 0x67, 0x9d, 0x3e, 0x77, 0xcf, 0xd2, 0xbd, 0x25, 0x31, 0xcc, 0xbc,
  0x67, 0xe3, 0xd8, 0x3c, 0x66, 0xb3, 0x54, 0xbe, 0x44, 0x98, 0x11, 0x3e,
  0xa2, 0x76, 0x0b, 0x3d, 0x71, 0xb3, 0x8f, 0xbe, 0x6c, 0xe2, 0x40, 0x3e,
  0x7b, 0x93, 0x84, 0x3e, 0x1b, 0x63, 0x77, 0xbd, 0xd3, 0x61, 0x0f, 0x3e,
  0x49, 0x03, 0x8b, 0xbe, 0x30, 0x73, 0xdc, 0x3c, 0xd8, 0xe5, 0x8b, 0xbe,
  0xb5, 0xc2, 0xaf, 0xbe, 0x13, 0xbb, 0xd4, 0x3d, 0xcd, 0x9f, 0x4b, 0x3c,
  0xee, 0xdd, 0x15, 0xbe, 0xc4, 0x53, 0x96, 0xbe, 0x82, 0x47, 0x82, 0xbe,
  0x80, 0x14, 0x4c, 0xbe, 0xb2, 0xc1, 0x90, 0xbe, 0x31, 0xc8, 0x2d, 0x3e,
  0xe2, 0x7c, 0x7f, 0x3e, 0x4c, 0xce, 0x48, 0x3e, 0xda, 0x7d, 0x3b, 0x3e,
  0x4d, 0x8d, 0x8b, 0x3e, 0xd8, 0x38, 0xee, 0x3d, 0x40, 0x48, 0x27, 0xbc,
  0xd5, 0xf1, 0x5e, 0x3e, 0xdf, 0x48, 0x63, 0xbd, 0x5c, 0x60, 0xb3, 0x3e,
  0xfc, 0x5a, 0x8e, 0x3e, 0x7e, 0xd6, 0x02, 0x3d, 0x97, 0xa0, 0x9e, 0x3e,
  0x68, 0x7f, 0x9f, 0xbc, 0x09, 0xd4, 0xaf, 0x3b, 0xa8, 0x72, 0x28, 0xbe,
  0x7f, 0x19, 0xd6, 0x3d, 0xcc, 0xb1, 0x60, 0xbe, 0x01, 0x57, 0x55, 0xbe,
  0xdf, 0x21, 0x9a, 0xbe, 0x86, 0x39, 0xbd, 0xbe, 0x50, 0x5d, 0xf0, 0x3c,
  0xe4, 0x83, 0xa1, 0xbd, 0x02, 0x7a, 0x2f, 0x3e, 0xa0, 0xf7, 0xb8, 0x3c,
  0xbf, 0xae, 0x8f, 0x3e, 0x6a, 0xbb, 0xd9, 0xbd, 0x7e, 0xa3, 0x7f, 0xbe,
  0x8a, 0x82, 0x48, 0x3e, 0xf8, 0x0c, 0xff, 0xbd, 0xf7, 0x80, 0x81, 0x3e,
  0x33, 0xb5, 0x96, 0xbe, 0xee, 0x7a, 0x20, 0x3e, 0x5f, 0xed, 0x35, 0xbe,
  0x22, 0x2c, 0x34, 0xbe, 0xaf, 0x79, 0x85, 0x3e, 0x5e, 0x92, 0x29, 0x3e,
  0xe0, 0xb4, 0x11, 0x3d, 0xe0, 0x6b, 0x15, 0xbc, 0x10, 0x07, 0xe3, 0x3d,
  0xe0, 0xe8, 0x2c, 0x3c, 0x10, 0x37, 0xe2, 0x3d, 0xce, 0x27, 0x48, 0x3e,
  0xe4, 0x68, 0xaf, 0x3d, 0xa0, 0xc5, 0x73, 0xbc, 0x79, 0x31, 0x9c, 0x3e,
  0xd8, 0x5f, 0x15, 0x3d, 0x44, 0x39, 0x32, 0x3e, 0x25, 0x1c, 0x87, 0x3e,
  0x80, 0xce, 0xde, 0x3c, 0x60, 0x57, 0x64, 0x3c, 0x18, 0xee, 0x5e, 0x3d,
  0x0e, 0x1f, 0x82, 0xbd, 0x73, 0xb9, 0x46, 0xbd, 0x17, 0xfc, 0xff, 0xbd,
  0x4e, 0x68, 0x88, 0xbe, 0x29, 0x5d, 0xbf, 0x3e, 0x28, 0x4f, 0xe5, 0x3d,
  0x90, 0x4e, 0xf6, 0x3c, 0x34, 0xe4, 0x25, 0x3e, 0xcb, 0x01, 0x6a, 0xbe,
  0x27, 0x7a, 0xde, 0x3d, 0x24, 0xd3, 0x81, 0xbd, 0x3a, 0x5b, 0x2f, 0x3e,
  0x0a, 0xea, 0x03, 0x3d, 0xa0, 0xaa, 0x0f, 0x3d, 0x0d, 0xb0, 0x76, 0xbe,
  0x76, 0xc3, 0x54, 0xbd, 0x76, 0x6b, 0x1a, 0x3e, 0xa8, 0x6d, 0x3b, 0x3e,
  0x43, 0xcc, 0x73, 0x3e, 0xbc, 0xc7, 0x1b, 0x3d, 0x88, 0x02, 0x56, 0x3d,
  0xcf, 0x12, 0xb0, 0xbe, 0x1e, 0x4c, 0x09, 0x3e, 0x32, 0x43, 0x96, 0xbe,
  0x2a, 0x0e, 0x8e, 0x3e, 0x8f, 0x59, 0x44, 0x3e, 0x81, 0x2d, 0x88, 0xbe,
  0x70, 0x81, 0x33, 0x3d, 0x37, 0xc0, 0xf2, 0xbd, 0x29, 0x10, 0x9a, 0x3e,
  0xa8, 0xef, 0x83, 0xbd, 0x35, 0x83, 0x49, 0x3e, 0xa4, 0x99, 0x08, 0xbe,
  0xb9, 0x93, 0x8f, 0xbe, 0x86, 0x08, 0xb6, 0x3e, 0x7f, 0xa0, 0x6d, 0xbe,
  0x52, 0x32, 0xe5, 0xbd, 0x9a, 0x23, 0x9a, 0x3e, 0xb9, 0x5c, 0xb7, 0xbe,
  0x5d, 0xb9, 0x28, 0x3d, 0xaf, 0x06, 0x4c, 0xbd, 0x48, 0xbb, 0x88, 0xbe,
  0x4e, 0x63, 0x2a, 0x3d, 0x36, 0xef, 0x22, 0xbe, 0x5c, 0x78, 0xb8, 0xbd,
  0xa9, 0x94, 0xab, 0x3d, 0x06, 0x34, 0x98, 0xbe, 0x91, 0x91, 0xb2, 0xbe,
  0x81, 0xba, 0x77, 0xbe, 0xbf, 0x44, 0xd4, 0xbe, 0xdf, 0xed, 0x9f, 0x3e,
  0xa7, 0x07, 0x93, 0xbe, 0x65, 0x9a, 0x3c, 0x3c, 0x29, 0x1c, 0xcd, 0xbd,
  0x2f, 0x5e, 0xa2, 0xbe, 0x6b, 0x30, 0x7e, 0x3e, 0xb7, 0xe5, 0x81, 0x3e,
  0x7a, 0xf2, 0x66, 0x3e, 0x3d, 0x2b, 0xa3, 0x3d, 0x61, 0xeb, 0x94, 0x3e,
  0x26, 0x8d, 0x49, 0xbe, 0xa0, 0x2a, 0x9b, 0x3d, 0x2c, 0x25, 0x44, 0xbd,
  0x1e, 0x7b, 0x11, 0xbc, 0x85, 0xf5, 0x61, 0xbd, 0x16, 0x7d, 0x88, 0xbe,
  0x33, 0x7b, 0x0f, 0xbe, 0xa6, 0x09, 0xbf, 0x3d, 0xd8, 0x58, 0x61, 0xbe,
  0xbd, 0xec, 0x70, 0xbe, 0xa0, 0x71, 0xb2, 0xbe, 0x15, 0xb6, 0xc5, 0xbe,
  0x9a, 0x05, 0x56, 0xbe, 0xe6, 0x07, 0x67, 0x3e, 0x7e, 0x52, 0x86, 0xbe,
  0xd2, 0x69, 0xe1, 0xbe, 0x1d, 0xcc, 0xe1, 0xbd, 0xaf, 0x61, 0x0f, 0x3d,
  0xb6, 0xc8, 0x1d, 0xbe, 0xba, 0xfa, 0x18, 0x3b, 0xac, 0x8f, 0x4c, 0xbe,
  0xd1, 0x15, 0x03, 0x3d, 0x65, 0x68, 0xda, 0xbd, 0xba, 0x13, 0x99, 0xbe,
  0x9b, 0x5a, 0x96, 0x3e, 0x96, 0x74, 0x49, 0xbd, 0xd6, 0x79, 0xfc, 0x3d,
  0x00, 0xbd, 0x5a, 0xbc, 0x85, 0x63, 0xbe, 0xbe, 0x8e, 0x0f, 0x62, 0x3e,
  0x52, 0x2e, 0xb9, 0x3d, 0x19, 0x27, 0x2c, 0xbe, 0xd7, 0x4d, 0x19, 0x3e,
  0x0d, 0xcf, 0xb8, 0xbc, 0x09, 0x28, 0x9e, 0xbe, 0x08, 0x41, 0x51, 0xbc,
  0x08, 0x3d, 0xf1, 0xbd, 0x00, 0xdd, 0xcc, 0x3e, 0xc6, 0x26, 0x5d, 0xbe,
  0x01, 0x2e, 0x18, 0xbe, 0x0d, 0x01, 0xf7, 0x3b, 0xc5, 0xb6, 0x5f, 0x3c,
  0x17, 0xfb, 0x9e, 0x3e, 0xcb, 0x3d, 0x87, 0x3e, 0x67, 0x9c, 0x65, 0x3e,
  0x61, 0x96, 0x75, 0xbd, 0x9d, 0xb7, 0x41, 0x3e, 0x4d, 0x9e, 0x88, 0x3a,
  0x61, 0x92, 0x4f, 0xbe, 0x53, 0x1e, 0x51, 0xbd, 0x9e, 0x46, 0x6f, 0x3e,
  0xad, 0x5f, 0x99, 0x3d, 0x57, 0x97, 0x88, 0xbe, 0x6d, 0x41, 0x7e, 0x3e,
  0xb5, 0x15, 0xa1, 0xbe, 0x1b, 0xd5, 0xcd, 0x3d, 0xf5, 0xef, 0x01, 0x3d,
  0x06, 0xf0, 0x55, 0x3e, 0xe7, 0xf5, 0x0f, 0x3e, 0x33, 0x82, 0x26, 0xbe,
  0x52, 0xa8, 0xff, 0x3c, 0x81, 0x6a, 0x68, 0xbe, 0xca, 0xa9, 0x1b, 0xbd,
  0x9c, 0x54, 0x21, 0xbe, 0xd5, 0x20, 0x18, 0xbe, 0xa6, 0xe7, 0xa3, 0x3d,
  0x20, 0x3a, 0xca, 0x3d, 0xeb, 0xc2, 0xb0, 0x3e, 0x60, 0x73, 0xcc, 0x3e,
  0xe8, 0x79, 0x52, 0xbe, 0xf5, 0x29, 0x55, 0xbd, 0x2b, 0x06, 0x08, 0xbe,
  0xb1, 0x1d, 0xcc, 0x3b, 0x93, 0x81, 0x9c, 0x3e, 0x7b, 0xc3, 0xb7, 0x3e,
  0xfe, 0xc2, 0xc2, 0xbd, 0x79, 0x90, 0x48, 0x3e, 0xd0, 0xcb, 0x0e, 0xbe,
  0x28, 0x3a, 0x14, 0xbc, 0x95, 0x88, 0x83, 0xbd, 0xf6, 0x5a, 0x42, 0x3e,
  0x6b, 0x08, 0x28, 0x3e, 0x18, 0x5e, 0xa7, 0xbe, 0x0c, 0x91, 0xbf, 0x3d,
  0x12, 0x69, 0xab, 0x3d, 0xc0, 0x0b, 0x88, 0xbe, 0xfb, 0x31, 0x10, 0xbe,
  0x07, 0x90, 0x08, 0xbe, 0x1b, 0xc4, 0x10, 0xbc, 0x54, 0xcf, 0x4e, 0xbe,
  0x20, 0xe5, 0xb7, 0x3c, 0x96, 0x22, 0x71, 0xbe, 0xed, 0xd3, 0x82, 0x3e,
  0xe9, 0x44, 0x8e, 0x3e, 0xe8, 0xa3, 0x34, 0x3e, 0x78, 0x8b, 0x7d, 0xbe,
  0x54, 0x81, 0xd4, 0x3d, 0x55, 0x3e, 0x8a, 0xbe, 0xc8, 0x5d, 0x01, 0x3e,
  0xc3, 0x44, 0xa0, 0x3e, 0xca, 0xb9, 0x8b, 0xbe, 0xa8, 0x16, 0x4e, 0x3d,
  0x37, 0x16, 0x9b, 0x3e, 0xa0, 0x5b, 0xb6, 0x3c, 0xe0, 0x04, 0x8f, 0xbc,
  0x20, 0x32, 0xd3, 0x3d, 0xa4, 0xb9, 0xb3, 0x3d, 0xc6, 0x42, 0x9e, 0xbe,
  0x00, 0x8b, 0xda, 0x3a, 0x96, 0x99, 0x87, 0xbe, 0xa8, 0xc3, 0xc9, 0xbd,
  0xf8, 0x29, 0x35, 0x3d, 0x5a, 0x13, 0x52, 0xbe, 0xc0, 0x37, 0x7e, 0x3d,
  0x70, 0x58, 0xab, 0x3c, 0x9f, 0x4b, 0x65, 0xbe, 0xd8, 0x5f, 0x39, 0x3e,
  0x8f, 0x54, 0x83, 0x3e, 0x80, 0xf2, 0xe0, 0x3c, 0x58, 0xbf, 0x14, 0x3d,
  0xf1, 0xae, 0x9a, 0x3e, 0x30, 0x88, 0x02, 0x3d, 0x90, 0x31, 0xca, 0xbc,
  0x80, 0x62, 0x51, 0xbc, 0x30, 0xa6, 0xb9, 0xbc, 0xa8, 0x25, 0x6d, 0x3d,
  0xf0, 0x97, 0x23, 0x3e, 0x87, 0x0a, 0x43, 0xbe, 0x90, 0xba, 0xf5, 0x3d,
  0xc0, 0xab, 0x54, 0xbe, 0x94, 0x89, 0xf5, 0xbd, 0x9c, 0x21, 0x8d, 0x3d,
  0xde, 0x48, 0x37, 0xbe, 0xec, 0xc0, 0x8e, 0xbe, 0x3f, 0xc3, 0x8a, 0x3e,
  0x9e, 0x10, 0x73, 0x3e, 0x00, 0xba, 0xed, 0x3b, 0x47, 0xd6, 0x88, 0xbe,
  0x5b, 0x28, 0x00, 0xbe, 0x50, 0x2e, 0xae, 0x3c, 0x2a, 0x0c, 0x63, 0x3e,
  0x1c, 0xdb, 0xeb, 0x3d, 0x23, 0xde, 0x8c, 0x3e, 0x7c, 0xd6, 0xb7, 0x3d,
  0xd4, 0x98, 0x19, 0xbe, 0x38, 0x2a, 0x63, 0x3d, 0xe0, 0x03, 0x0b, 0x3d,
  0x55, 0x43, 0x10, 0xbe, 0x5f, 0x19, 0x86, 0x3e, 0x80, 0x78, 0xb2, 0x3b,
  0x0b, 0x83, 0x7b, 0x3e, 0xbf, 0xab, 0x66, 0x3e, 0xbf, 0x3d, 0x3a, 0xbe,
  0xbd, 0x13, 0x83, 0x3e, 0xe0, 0xb1, 0x43, 0x3d, 0xb2, 0x9d, 0x96, 0xbd,
  0x47, 0x92, 0x1b, 0xbe, 0x73, 0x3d, 0xb5, 0x3e, 0xd2, 0xd2, 0x8f, 0x3b,
  0x27, 0x13, 0x52, 0xbe, 0x46, 0x98, 0x57, 0xbe, 0xd4, 0x46, 0x4e, 0x3e,
  0x20, 0x11, 0x44, 0x3e, 0x7a, 0x40, 0x9a, 0xbe, 0x05, 0x21, 0x59, 0xbe,
  0xb9, 0x22, 0x79, 0x3e, 0xad, 0x03, 0xea, 0xbd, 0x89, 0x01, 0x98, 0xbd,
  0xdc, 0x06, 0x02, 0x3e, 0x3d, 0x1c, 0xa8, 0xbd, 0x53, 0xb8, 0x83, 0xbe,
  0xed, 0x0c, 0x81, 0xbe, 0x1d, 0x14, 0x8e, 0x3d, 0x26, 0xa3, 0x29, 0xbe,
  0xfd, 0xff, 0x03, 0xbe, 0x6a, 0xf6, 0xe7, 0x3d, 0xba, 0x29, 0xa4, 0x3e,
  0x80, 0x52, 0xfb, 0x3b, 0xaf, 0x90, 0xa0, 0xbd, 0x86, 0x4a, 0x03, 0x3e,
  0x00, 0xe0, 0x16, 0x3e, 0x30, 0x98, 0x91, 0xbe, 0xb3, 0xd3, 0x98, 0x3d,
  0xc3, 0x8d, 0x38, 0x3e, 0xdb, 0xc0, 0x61, 0xbe, 0xab, 0x97, 0x81, 0xbe,
  0xa6, 0xf1, 0x86, 0xbe, 0x9a, 0xe8, 0x25, 0x3e, 0x8e, 0x1d, 0x7d, 0x3d,
  0x1a, 0x42, 0x81, 0xbe, 0x3d, 0x9e, 0xdd, 0x3d, 0xb4, 0x41, 0x7b, 0x3e,
  0xe5, 0x26, 0x69, 0xbe, 0x34, 0x05, 0xcc, 0xbd, 0x0a, 0xca, 0x53, 0x3e,
  0xcd, 0x3d, 0x61, 0x3e, 0x4f, 0x6f, 0x4a, 0x3d, 0x1e, 0x40, 0x06, 0xbe,
  0x14, 0xd5, 0x78, 0x3d, 0x4e, 0x98, 0x21, 0x3e, 0xd0, 0xa1, 0x64, 0xbd,
  0xfe, 0xd7, 0xa8, 0xbd, 0x40, 0xaa, 0xf2, 0xbd, 0xef, 0x87, 0x68, 0x3c,
  0xd9, 0xa7, 0x91, 0xbd, 0x82, 0xe5, 0x36, 0x3b, 0xed, 0xbd, 0x51, 0x3d,
  0x50, 0x7f, 0x23, 0x3e, 0xbd, 0x75, 0x43, 0x3e, 0xb8, 0x03, 0x79, 0x3d,
  0xea, 0xf0, 0x62, 0x3e, 0xf0, 0xee, 0xc3, 0x3c, 0x90, 0x6d, 0x70, 0xbe,
  0xa7, 0x36, 0x0b, 0xbe, 0xd2, 0x7b, 0x37, 0xbe, 0x3c, 0xd9, 0xf5, 0xbd,
  0x4c, 0xd4, 0x87, 0xbe, 0x94, 0xe4, 0x0e, 0x3e, 0x88, 0x79, 0x77, 0x3d,
  0x0e, 0xfc, 0x69, 0x3e, 0xea, 0x5f, 0xbe, 0xbd, 0x99, 0x4c, 0x88, 0x3e,
  0x20, 0x98, 0x6d, 0xbd, 0x8c, 0x8a, 0x11, 0xbe, 0x98, 0x4c, 0x11, 0xbd,
  0x75, 0x85, 0x9b, 0x3e, 0xde, 0x22, 0x7e, 0x3e, 0x28, 0xbf, 0x6e, 0x3d,
  0x92, 0x21, 0x7e, 0x3e, 0x92, 0x97, 0x6e, 0x3e, 0xb6, 0x32, 0x56, 0x3e,
  0xcb, 0xf7, 0x1f, 0xbe, 0xf6, 0x85, 0xe8, 0xbd, 0xd0, 0xf6, 0x11, 0x3d,
  0xa4, 0x06, 0x82, 0xbd, 0x4c, 0xb9, 0x4c, 0xbe, 0xde, 0x2f, 0x6d, 0x3e,
  0xc0, 0x5b, 0x65, 0xbe, 0x19, 0x2c, 0x15, 0xbe, 0xb6, 0xfe, 0xff, 0xff,
  0x10, 0x00, 0x00, 0x00, 0x04, 0x00, 0x00, 0x00, 0x14, 0x00, 0x00, 0x00,
  0x2c, 0x00, 0x00, 0x00, 0x02, 0x00, 0x00, 0x00, 0x1e, 0x00, 0x00, 0x00,
  0x1e, 0x00, 0x00, 0x00, 0x17, 0x00, 0x00, 0x00, 0x73, 0x65, 0x71, 0x75,
  0x65, 0x6e, 0x74, 0x69, 0x61, 0x6c, 0x2f, 0x64, 0x65, 0x6e, 0x73, 0x65,
  0x2f, 0x4d, 0x61, 0x74, 0x4d, 0x75, 0x6c, 0x00, 0x34, 0xfe, 0xff, 0xff,
  0x82, 0xff, 0xff, 0xff, 0x04, 0x00, 0x00, 0x00, 0x14, 0x00, 0x00, 0x00,
  0xc5, 0x37, 0x59, 0x20, 0x6f, 0xa2, 0x93, 0x3e, 0x34, 0x1c, 0xda, 0x3d,
  0x75, 0x42, 0x38, 0x3e, 0x03, 0xcd, 0xa1, 0x3e, 0x16, 0xff, 0xff, 0xff,
  0x10, 0x00, 0x00, 0x00, 0x03, 0x00, 0x00, 0x00, 0x10, 0x00, 0x00, 0x00,
  0x48, 0x00, 0x00, 0x00, 0x01, 0x00, 0x00, 0x00, 0x05, 0x00, 0x00, 0x00,
  0x32, 0x00, 0x00, 0x00, 0x73, 0x65, 0x71, 0x75, 0x65, 0x6e, 0x74, 0x69,
  0x61, 0x6c, 0x2f, 0x64, 0x65, 0x6e, 0x73, 0x65, 0x5f, 0x31, 0x2f, 0x42,
  0x69, 0x61, 0x73, 0x41, 0x64, 0x64, 0x2f, 0x52, 0x65, 0x61, 0x64, 0x56,
  0x61, 0x72, 0x69, 0x61, 0x62, 0x6c, 0x65, 0x4f, 0x70, 0x2f, 0x72, 0x65,
  0x73, 0x6f, 0x75, 0x72, 0x63, 0x65, 0x00, 0x00, 0x04, 0x00, 0x06, 0x00,
  0x04, 0x00, 0x00, 0x00, 0x00, 0x00, 0x06, 0x00, 0x08, 0x00, 0x04, 0x00,
  0x06, 0x00, 0x00, 0x00, 0x04, 0x00, 0x00, 0x00, 0x78, 0x00, 0x00, 0x00,
  0x00, 0x00, 0x00, 0x00, 0x3e, 0x16, 0x48, 0xbb, 0x4a, 0xc1, 0xfe, 0xbb,
  0x3e, 0x58, 0xcc, 0xbc, 0x00, 0x00, 0x00, 0x00, 0x00, 0x00, 0x00, 0x00,
  0x00, 0x00, 0x00, 0x00, 0x00, 0x00, 0x00, 0x00, 0x00, 0x00, 0x00, 0x00,
  0xd4, 0xd9, 0x91, 0x3d, 0x00, 0x00, 0x00, 0x00, 0x15, 0x06, 0xc5, 0xbb,
  0x3e, 0x66, 0xb1, 0x3d, 0x00, 0x00, 0x00, 0x00, 0x69, 0x2d, 0x2c, 0xbc,
  0xee, 0x28, 0x1b, 0xbc, 0x3d, 0x9e, 0x45, 0xbd, 0x45, 0x99, 0x12, 0xbd,
  0x9e, 0x65, 0x0a, 0xbc, 0x00, 0x00, 0x00, 0x00, 0x9a, 0x02, 0xf5, 0xbc,
  0xd6, 0x4f, 0x43, 0x3d, 0x73, 0x02, 0xbf, 0x3d, 0xb6, 0x1d, 0x0b, 0xbd,
  0x4f, 0xd0, 0x52, 0xbd, 0x00, 0x00, 0x00, 0x00, 0x00, 0x00, 0x00, 0x00,
  0xa4, 0xfb, 0x97, 0xbd, 0xde, 0xbb, 0x13, 0xbb, 0x00, 0x00, 0x00, 0x00,
  0x00, 0x00, 0x0e, 0x00, 0x14, 0x00, 0x04, 0x00, 0x00, 0x00, 0x08, 0x00,
  0x0c, 0x00, 0x10, 0x00, 0x0e, 0x00, 0x00, 0x00, 0x10, 0x00, 0x00, 0x00,
  0x02, 0x00, 0x00, 0x00, 0x10, 0x00, 0x00, 0x00, 0x44, 0x00, 0x00, 0x00,
  0x01, 0x00, 0x00, 0x00, 0x1e, 0x00, 0x00, 0x00, 0x30, 0x00, 0x00, 0x00,
  0x73, 0x65, 0x71, 0x75, 0x65, 0x6e, 0x74, 0x69, 0x61, 0x6c, 0x2f, 0x64,
  0x65, 0x6e, 0x73, 0x65, 0x2f, 0x42, 0x69, 0x61, 0x73, 0x41, 0x64, 0x64,
  0x2f, 0x52, 0x65, 0x61, 0x64, 0x56, 0x61, 0x72, 0x69, 0x61, 0x62, 0x6c,
  0x65, 0x4f, 0x70, 0x2f, 0x72, 0x65, 0x73, 0x6f, 0x75, 0x72, 0x63, 0x65,
  0x00, 0x00, 0x00, 0x00, 0xa4, 0xff, 0xff, 0xff, 0x14, 0x00, 0x18, 0x00,
  0x04, 0x00, 0x00, 0x00, 0x08, 0x00, 0x0c, 0x00, 0x10, 0x00, 0x00, 0x00,
  0x00, 0x00, 0x14, 0x00, 0x14, 0x00, 0x00, 0x00, 0x14, 0x00, 0x00, 0x00,
  0x01, 0x00, 0x00, 0x00, 0x18, 0x00, 0x00, 0x00, 0x30, 0x00, 0x00, 0x00,
  0x20, 0x00, 0x00, 0x00, 0x02, 0x00, 0x00, 0x00, 0x01, 0x00, 0x00, 0x00,
  0x1e, 0x00, 0x00, 0x00, 0x0b, 0x00, 0x00, 0x00, 0x64, 0x65, 0x6e, 0x73,
  0x65, 0x5f, 0x69, 0x6e, 0x70, 0x75, 0x74, 0x00, 0x02, 0x00, 0x00, 0x00,
  0xff, 0xff, 0xff, 0xff, 0x1e, 0x00, 0x00, 0x00, 0xfc, 0xff, 0xff, 0xff,
  0x04, 0x00, 0x04, 0x00, 0x04, 0x00, 0x00, 0x00
};
